0000
7F9B
7F37
7ED2
7E6E
7E09
7DA5
7D40
7CDC
7C78
7C13
7BAF
7B4B
7AE6
7A82
7A1E
79BA
7956
78F2
788E
782A
77C7
7763
76FF
769C
7639
75D5
7572
750F
74AC
7449
73E6
7384
7321
72BF
725C
71FA
7198
7136
70D5
7073
7012
6FB0
6F4F
6EEE
6E8D
6E2D
6DCC
6D6C
6D0C
6CAC
6C4C
6BED
6B8D
6B2E
6ACF
6A70
6A12
69B4
6955
68F7
689A
683C
67DF
6782
6725
66C9
666D
6611
65B5
6559
64FE
64A3
6448
63EE
6394
633A
62E0
6287
622D
61D5
617C
6124
60CC
6074
601D
5FC6
5F6F
5F19
5EC3
5E6D
5E18
5DC3
5D6E
5D19
5CC5
5C72
5C1E
5BCB
5B78
5B26
5AD4
5A82
5A31
59E0
598F
593F
58EF
58A0
5851
5802
57B4
5766
5719
56CB
567F
5632
55E6
559B
5550
5505
54BB
5471
5428
53DF
5396
534E
5306
52BF
5278
5231
51EB
51A6
5161
511C
50D8
5094
5051
500E
4FCC
4F8A
4F48
4F07
4EC7
4E87
4E47
4E08
4DCA
4D8C
4D4E
4D11
4CD4
4C98
4C5D
4C21
4BE7
4BAD
4B73
4B3A
4B01
4AC9
4A92
4A5B
4A24
49EE
49B8
4983
494F
491B
48E8
48B5
4882
4850
481F
47EE
47BE
478F
475F
4731
4703
46D5
46A8
467C
4650
4625
45FA
45D0
45A7
457E
4555
452D
4506
44DF
44B9
4493
446E
444A
4426
4403
43E0
43BE
439C
437B
435B
433B
431C
42FD
42DF
42C1
42A5
4288
426D
4251
4237
421D
4204
41EB
41D3
41BB
41A4
418E
4178
4163
414F
413B
4128
4115
4103
40F1
40E0
40D0
40C0
40B1
40A3
4095
4088
407B
406F
4064
4059
404F
4045
403C
4034
402C
4025
401F
4019
4014
400F
400B
4008
4005
4003
4001
4000
4000
4000
4001
4003
4005
4008
400B
400F
4014
4019
401F
4025
402C
4034
403C
4045
404F
4059
4064
406F
407B
4088
4095
40A3
40B1
40C0
40D0
40E0
40F1
4103
4115
4128
413B
414F
4163
4178
418E
41A4
41BB
41D3
41EB
4204
421D
4237
4251
426D
4288
42A5
42C1
42DF
42FD
431C
433B
435B
437B
439C
43BE
43E0
4403
4426
444A
446E
4493
44B9
44DF
4506
452D
4555
457E
45A7
45D0
45FA
4625
4650
467C
46A8
46D5
4703
4731
475F
478F
47BE
47EE
481F
4850
4882
48B5
48E8
491B
494F
4983
49B8
49EE
4A24
4A5B
4A92
4AC9
4B01
4B3A
4B73
4BAD
4BE7
4C21
4C5D
4C98
4CD4
4D11
4D4E
4D8C
4DCA
4E08
4E47
4E87
4EC7
4F07
4F48
4F8A
4FCC
500E
5051
5094
50D8
511C
5161
51A6
51EB
5231
5278
52BF
5306
534E
5396
53DF
5428
5471
54BB
5505
5550
559B
55E6
5632
567F
56CB
5719
5766
57B4
5802
5851
58A0
58EF
593F
598F
59E0
5A31
5A82
5AD4
5B26
5B78
5BCB
5C1E
5C72
5CC5
5D19
5D6E
5DC3
5E18
5E6D
5EC3
5F19
5F6F
5FC6
601D
6074
60CC
6124
617C
61D5
622D
6287
62E0
633A
6394
63EE
6448
64A3
64FE
6559
65B5
6611
666D
66C9
6725
6782
67DF
683C
689A
68F7
6955
69B4
6A12
6A70
6ACF
6B2E
6B8D
6BED
6C4C
6CAC
6D0C
6D6C
6DCC
6E2D
6E8D
6EEE
6F4F
6FB0
7012
7073
70D5
7136
7198
71FA
725C
72BF
7321
7384
73E6
7449
74AC
750F
7572
75D5
7639
769C
76FF
7763
77C7
782A
788E
78F2
7956
79BA
7A1E
7A82
7AE6
7B4B
7BAF
7C13
7C78
7CDC
7D40
7DA5
7E09
7E6E
7ED2
7F37
7F9B
