051F
051F
051F
0520
0521
0522
0524
0526
0528
052A
052D
0530
0533
0537
053B
053F
0543
0548
054D
0552
0558
055D
0563
056A
0570
0577
057F
0586
058E
0596
059E
05A7
05B0
05B9
05C2
05CC
05D6
05E0
05EB
05F6
0601
060C
0618
0624
0630
063D
064A
0657
0664
0671
067F
068D
069C
06AB
06B9
06C9
06D8
06E8
06F8
0708
0719
072A
073B
074C
075E
076F
0782
0794
07A7
07B9
07CD
07E0
07F4
0808
081C
0830
0845
085A
086F
0885
089A
08B0
08C7
08DD
08F4
090B
0922
0939
0951
0969
0981
099A
09B2
09CB
09E4
09FE
0A17
0A31
0A4B
0A66
0A80
0A9B
0AB6
0AD1
0AED
0B08
0B24
0B40
0B5D
0B79
0B96
0BB3
0BD1
0BEE
0C0C
0C2A
0C48
0C66
0C85
0CA4
0CC3
0CE2
0D01
0D21
0D41
0D61
0D81
0DA2
0DC2
0DE3
0E04
0E25
0E47
0E69
0E8A
0EAC
0ECF
0EF1
0F14
0F36
0F59
0F7D
0FA0
0FC3
0FE7
100B
102F
1053
1078
109C
10C1
10E6
110B
1131
1156
117C
11A1
11C7
11EE
1214
123A
1261
1288
12AE
12D6
12FD
1324
134C
1373
139B
13C3
13EB
1413
143C
1464
148D
14B6
14DF
1508
1531
155A
1584
15AD
15D7
1601
162A
1655
167F
16A9
16D3
16FE
1729
1753
177E
17A9
17D4
17FF
182A
1856
1881
18AD
18D9
1904
1930
195C
1988
19B4
19E0
1A0D
1A39
1A65
1A92
1ABE
1AEB
1B18
1B45
1B72
1B9F
1BCC
1BF9
1C26
1C53
1C80
1CAE
1CDB
1D08
1D36
1D63
1D91
1DBF
1DEC
1E1A
1E48
1E76
1EA4
1ED1
1EFF
1F2D
1F5B
1F89
1FB7
1FE6
2014
2042
2070
209E
20CC
20FB
2129
2157
2185
21B4
21E2
2210
223E
226D
229B
22C9
22F8
2326
2354
2382
23B1
23DF
240D
243B
246A
2498
24C6
24F4
2522
2550
257E
25AC
25DA
2608
2636
2664
2692
26C0
26EE
271B
2749
2777
27A4
27D2
2800
282D
285A
2888
28B5
28E2
2910
293D
296A
2997
29C4
29F0
2A1D
2A4A
2A77
2AA3
2AD0
2AFC
2B28
2B55
2B81
2BAD
2BD9
2C05
2C30
2C5C
2C88
2CB3
2CDF
2D0A
2D35
2D60
2D8B
2DB6
2DE1
2E0C
2E36
2E61
2E8B
2EB5
2EDF
2F09
2F33
2F5D
2F86
2FB0
2FD9
3003
302C
3055
307D
30A6
30CF
30F7
3120
3148
3170
3198
31BF
31E7
320E
3236
325D
3284
32AB
32D1
32F8
331E
3344
336A
3390
33B6
33DB
3401
3426
344B
3470
3495
34B9
34DD
3502
3526
3549
356D
3590
35B4
35D7
35FA
361C
363F
3661
3683
36A5
36C7
36E9
370A
372B
374C
376D
378D
37AE
37CE
37EE
380E
382D
384C
386C
388A
38A9
38C8
38E6
3904
3922
393F
395D
397A
3997
39B4
39D0
39EC
3A08
3A24
3A40
3A5B
3A76
3A91
3AAC
3AC6
3AE1
3AFB
3B14
3B2E
3B47
3B60
3B79
3B91
3BAA
3BC2
3BDA
3BF1
3C08
3C20
3C36
3C4D
3C63
3C79
3C8F
3CA5
3CBA
3CCF
3CE4
3CF9
3D0D
3D21
3D35
3D48
3D5C
3D6F
3D82
3D94
3DA6
3DB8
3DCA
3DDB
3DED
3DFE
3E0E
3E1F
3E2F
3E3F
3E4E
3E5E
3E6D
3E7C
3E8A
3E98
3EA6
3EB4
3EC2
3ECF
3EDC
3EE8
3EF5
3F01
3F0C
3F18
3F23
3F2E
3F39
3F43
3F4E
3F57
3F61
3F6A
3F73
3F7C
3F85
3F8D
3F95
3F9C
3FA4
3FAB
3FB2
3FB8
3FBE
3FC4
3FCA
3FCF
3FD5
3FD9
3FDE
3FE2
3FE6
3FEA
3FED
3FF0
3FF3
3FF6
3FF8
3FFA
3FFC
3FFD
3FFE
3FFF
4000
4000
4000
4000
3FFF
3FFE
3FFD
3FFC
3FFA
3FF8
3FF6
3FF3
3FF0
3FED
3FEA
3FE6
3FE2
3FDE
3FD9
3FD5
3FCF
3FCA
3FC4
3FBE
3FB8
3FB2
3FAB
3FA4
3F9C
3F95
3F8D
3F85
3F7C
3F73
3F6A
3F61
3F57
3F4E
3F43
3F39
3F2E
3F23
3F18
3F0C
3F01
3EF5
3EE8
3EDC
3ECF
3EC2
3EB4
3EA6
3E98
3E8A
3E7C
3E6D
3E5E
3E4E
3E3F
3E2F
3E1F
3E0E
3DFE
3DED
3DDB
3DCA
3DB8
3DA6
3D94
3D82
3D6F
3D5C
3D48
3D35
3D21
3D0D
3CF9
3CE4
3CCF
3CBA
3CA5
3C8F
3C79
3C63
3C4D
3C36
3C20
3C08
3BF1
3BDA
3BC2
3BAA
3B91
3B79
3B60
3B47
3B2E
3B14
3AFB
3AE1
3AC6
3AAC
3A91
3A76
3A5B
3A40
3A24
3A08
39EC
39D0
39B4
3997
397A
395D
393F
3922
3904
38E6
38C8
38A9
388A
386C
384C
382D
380E
37EE
37CE
37AE
378D
376D
374C
372B
370A
36E9
36C7
36A5
3683
3661
363F
361C
35FA
35D7
35B4
3590
356D
3549
3526
3502
34DD
34B9
3495
3470
344B
3426
3401
33DB
33B6
3390
336A
3344
331E
32F8
32D1
32AB
3284
325D
3236
320E
31E7
31BF
3198
3170
3148
3120
30F7
30CF
30A6
307D
3055
302C
3003
2FD9
2FB0
2F86
2F5D
2F33
2F09
2EDF
2EB5
2E8B
2E61
2E36
2E0C
2DE1
2DB6
2D8B
2D60
2D35
2D0A
2CDF
2CB3
2C88
2C5C
2C30
2C05
2BD9
2BAD
2B81
2B55
2B28
2AFC
2AD0
2AA3
2A77
2A4A
2A1D
29F0
29C4
2997
296A
293D
2910
28E2
28B5
2888
285A
282D
2800
27D2
27A4
2777
2749
271B
26EE
26C0
2692
2664
2636
2608
25DA
25AC
257E
2550
2522
24F4
24C6
2498
246A
243B
240D
23DF
23B1
2382
2354
2326
22F8
22C9
229B
226D
223E
2210
21E2
21B4
2185
2157
2129
20FB
20CC
209E
2070
2042
2014
1FE6
1FB7
1F89
1F5B
1F2D
1EFF
1ED1
1EA4
1E76
1E48
1E1A
1DEC
1DBF
1D91
1D63
1D36
1D08
1CDB
1CAE
1C80
1C53
1C26
1BF9
1BCC
1B9F
1B72
1B45
1B18
1AEB
1ABE
1A92
1A65
1A39
1A0D
19E0
19B4
1988
195C
1930
1904
18D9
18AD
1881
1856
182A
17FF
17D4
17A9
177E
1753
1729
16FE
16D3
16A9
167F
1655
162A
1601
15D7
15AD
1584
155A
1531
1508
14DF
14B6
148D
1464
143C
1413
13EB
13C3
139B
1373
134C
1324
12FD
12D6
12AE
1288
1261
123A
1214
11EE
11C7
11A1
117C
1156
1131
110B
10E6
10C1
109C
1078
1053
102F
100B
0FE7
0FC3
0FA0
0F7D
0F59
0F36
0F14
0EF1
0ECF
0EAC
0E8A
0E69
0E47
0E25
0E04
0DE3
0DC2
0DA2
0D81
0D61
0D41
0D21
0D01
0CE2
0CC3
0CA4
0C85
0C66
0C48
0C2A
0C0C
0BEE
0BD1
0BB3
0B96
0B79
0B5D
0B40
0B24
0B08
0AED
0AD1
0AB6
0A9B
0A80
0A66
0A4B
0A31
0A17
09FE
09E4
09CB
09B2
099A
0981
0969
0951
0939
0922
090B
08F4
08DD
08C7
08B0
089A
0885
086F
085A
0845
0830
081C
0808
07F4
07E0
07CD
07B9
07A7
0794
0782
076F
075E
074C
073B
072A
0719
0708
06F8
06E8
06D8
06C9
06B9
06AB
069C
068D
067F
0671
0664
0657
064A
063D
0630
0624
0618
060C
0601
05F6
05EB
05E0
05D6
05CC
05C2
05B9
05B0
05A7
059E
0596
058E
0586
057F
0577
0570
056A
0563
055D
0558
0552
054D
0548
0543
053F
053B
0537
0533
0530
052D
052A
0528
0526
0524
0522
0521
0520
051F
051F
051F
